BF476156
3FDF4EE4
3F4B63A2
3F74DD1E
3F71259A
3EB4CF29
BD9CB9AA
BF53AE36
BF597204
BF52E01A
BDD9DBA9
3EDCF030
BE8366D8
BF4D2D13
3E69ABF3
BF36FA61
BDF28848
3EA64A38
3F209A13
3E577D52
BF643138
BF29FFB5
BE862C77
BE80DF37
BF7B6284
3EFD099E
BF380410
3F398A65
BF66C3FC
BF7DC305
3C9BF163
3F4044D0
3EAABF12
3E99B5E9
BDEB3AAC
3D7CCF29

