3DBC83A9
BF176FB1
BE188659
BB843809
BF3A7BA2
BF15B4DD
3C05B185
BE81BB28
3F0BF477
3E800DC3
3EE25050
BF329B07
BF9EC07B
BF5D6A6A
BE8297E1
3EEA91DA
BF2C94A3
3F5C918E
BFA7E84F
BE884A94
BF1CA372
BF317AFF
BEB5A9CA
3DFB2FEC
BEF78BBD
BD84F5D3
3F2D6D6E
3CDE742A
BE7CB7D4
3EC1C886
BFDD6901
BE9F33EC
BEE2B64A
3F2C4007
3F743DFF
BEBB81B6

