3D88387E
C00A597D
3E15A35D
3E2DD767
3D476D11
BCBA0A52
BF6C5C46
BF654057
BEC69985
BF0CA7E7
BF4FF584
BEBA02DA
BF915C5B
3F8FEDF2
3ECE2132
3EB62889
3F6C37F8
3E681627
BD9F9379
BF576641
BF754035
BEEDEBB7
BF1A4420
3DE29F9D
3E73E037
3D01BC99
BF3967BA
BF46513B
3F9CF76E
3D59902A
BF008F43
3EEFDF1A
BF338EB0
BE1C918E
BECB458D
BF5F1ED1

