BF7A2C67
3F286EA0
BF790BA6
3E711559
3F05D649
BBC01605
3FBCB442
BF931CC9
3E1F31F4
BEBB43D9
3D97BD06
3DC44849
BE0F82F5
BE1AA822
BF760BB3
BF23FE2A
BF44DD51
3EE74DE0
3F336428
BED28955
BEFAB55F
BEE8DD61
3E5827FA
3EE55065
3F60C448
BEE2EF2C
BE7B213E
3ED17A03
3F195D81
3F615C96
3F6180E5
BF302CA1
BF67E4AC
BF4929BB
3F76A3F0
3E504C49

